00   00   00   02   04   fe   fe   02   02   fe   fe   02   02   00   00   00   00   00   00   fe   00   02   fe   fe   fe   02   fe   fe   fe   00   00   00   00   00   00   fe   00   fe   02   fe   02   fe   02   fe   02   00   00   fc   02   fe   fe   00   02   00   00   04   00   00   00   04   00   fe   fe   02   04   00   00   02   00   fe   fe   02   02   fe   fe   02   02   00   00   00   fe   02   fe   00   fe   00   00   00   fc   04   00   00   fc   fe   fe   02   fe   fe   02   00   fe   00   00   00   00   00   04   00   00   fe   fe   fe   02   fe   fe   04   02   00   00   00   00   00   00   04   00   fe   fe   02   02   fe   02   00   02   fc   00   00   00   fc   00   00   04   02   02   fe   fe   02   fe   00   fe   04   00   00   fc   00   00   00   fc   fe   fe   02   fe   fe   02   00   fe   00   04   00   00   00   00   00   00   fe   fe   fe   02   fe   fe   04   02   00   00   04   00   00   00   00   00   fe   fe   02   02   fe   02   00   02   fc   00   00   04   fc   00   00   00   02   02   fe   00   00   00   fe   00   fe   fe   fe   02   fe   fe   fe   02   00   04   00   00   00   00   fe   00   fe   fe   fe   02   fe   fe   fe   02   04   00   00   00   00   fc   02   00   02   fe   02   fe   02   fe   02   fe   00   00   00
